[PAD]
[UNK]
[CLS]
[SEP]
[MASK]
%
,
-
.
/
0
1
2
3
4
5
6
7
8
9
:
?
a
b
c
d
e
g
h
i
k
l
m
n
o
p
r
s
t
u
v
x
“
”
、
。
一
三
上
下
不
与
专
且
丘
丙
业
东
两
严
个
中
丰
临
丸
为
主
久
么
之
乏
乙
也
习
乱
乳
了
予
事
二
于
五
亚
些
亡
亢
交
亦
产
人
什
仅
介
仍
从
他
代
以
们
件
任
休
会
传
伤
伴
似
但
位
低
住
体
何
作
你
佳
使
例
供
依
侧
侵
便
促
保
信
修
候
值
假
偏
做
停
健
像
儿
元
充
先
光
克
免
入
全
共
关
兴
其
具
典
养
内
再
冒
冲
决
况
冷
净
准
凉
减
凝
几
出
分
切
列
则
创
初
判
利
别
到
制
刺
剂
前
剧
副
力
办
功
加
动
助
劳
包
化
区
医
十
升
半
单
占
卧
卫
危
即
卵
压
厚
原
去
参
又
及
友
双
反
发
取
受
变
口
另
只
可
史
右
叶
吃
各
合
同
名
后
吐
向
吗
否
含
听
吸
呈
呕
呢
周
味
呼
命
和
咳
咽
品
响
哪
善
喉
喝
器
囊
四
回
因
困
围
固
国
圆
在
地
均
坏
坐
块
坚
垂
型
基
塞
境
增
壁
声
处
备
复
外
多
夜
够
大
天
太
失
头
女
奶
好
如
妇
妈
妊
始
娠
娩
婴
子
孔
孕
存
季
学
孩
它
安
完
官
定
宜
宝
实
室
宫
害
家
容
密
富
寒
察
对
导
射
将
小
少
尖
尚
尤
就
尽
尿
局
层
屑
展
属
山
岁
巢
工
左
差
己
已
巴
布
带
帮
常
干
平
年
并
广
床
应
底
度
康
延
建
开
异
式
引
张
弱
强
当
形
影
往
征
径
很
律
得
循
微
心
必
忌
快
怀
态
怎
思
急
性
总
恢
息
恶
患
情
惯
想
愈
意
感
慢
成
我
或
房
所
手
才
打
扩
找
把
抑
抗
折
护
报
抵
抽
担
拉
择
括
持
指
按
挛
损
换
据
排
接
控
推
措
描
提
摄
摩
播
擦
支
收
改
放
故
效
敏
散
数
整
斑
料
断
新
方
施
旋
无
日
旦
早
时
明
易
春
是
显
晕
晚
普
智
暴
曲
更
最
月
有
朋
服
期
木
未
本
术
机
杂
杆
条
来
松
板
极
构
果
某
染
查
柱
标
栓
样
核
根
格
桃
梅
梗
检
植
椎
次
欲
止
正
此
步
死
殊
殖
段
母
每
毒
比
毛
气
氧
氨
水
汁
求
汗
汤
沉
沟
没
油
治
泌
法
泡
波
注
泻
洁
洗
活
流
浆
测
浓
浴
海
浸
消
润
液
淋
淡
深
混
清
渐
渗
温
湿
溃
源
溶
滋
滑
滞
滴
潮
激
火
灶
炎
点
炼
烂
烈
烟
烧
热
焦
然
照
熟
燥
片
牙
牛
物
特
状
狭
率
环
现
球
理
瓜
甚
生
用
由
甲
电
男
畅
界
留
畸
疏
疗
疡
疣
疫
疮
疱
疲
疹
疼
疾
病
症
痒
痔
痕
痘
痛
痫
痰
瘙
瘤
瘦
瘫
癌
癣
癫
白
的
皮
盆
益
盐
盘
目
直
相
看
真
眠
眼
着
睡
睾
知
短
石
研
破
硬
确
碍
碘
碱
示
神
禁
离
种
科
秘
积
称
移
程
稳
究
空
穿
突
窄
立
童
竭
端
第
等
简
管
米
类
粉
粒
粗
粘
精
糖
糜
系
紊
素
索
紧
紫
累
繁
红
纤
约
纯
线
组
细
织
终
绍
经
结
给
绝
统
继
绪
续
维
综
绿
缓
缘
缩
缺
网
置
羊
美
群
老
考
者
而
耳
联
肉
肌
肛
肝
肠
股
肢
肤
肥
肪
育
肺
肾
肿
胀
胃
胆
背
胎
胚
胞
胰
胱
胶
胸
胺
能
脂
脉
脊
脏
脑
脓
脚
脱
脸
脾
腔
腰
腹
腺
腻
腿
膀
膏
膜
膝
自
臭
至
致
舌
舒
般
良
色
节
花
若
苦
范
茎
茶
草
荨
药
菌
菜
萄
萎
营
落
葡
蔬
薄
虑
虚
虫
虽
蛋
螺
血
行
衡
衣
补
表
衰
被
裂
裤
西
要
见
观
规
视
觉
角
解
触
言
计
认
让
议
记
许
论
证
识
诊
试
话
该
语
误
诱
说
请
调
谢
豆
象
负
质
贫
费
走
起
超
越
足
路
身
转
软
轻
较
辅
输
辛
辣
边
达
过
运
近
还
这
进
远
连
迟
迫
述
退
适
选
透
逐
通
速
造
道
遗
避
那
郁
部
都
配
酒
酮
酶
酸
醇
采
里
重
量
金
鉴
针
钙
钟
锻
镜
长
门
闭
问
间
防
阳
阴
阻
附
降
限
院
除
险
陷
随
隐
隔
障
难
集
雌
需
霉
青
静
非
面
韧
音
项
须
预
颅
颈
频
题
风
食
餐
饭
饮
首
香
验
骨
髓
高
鱼
鲜
鳞
鸡
麻
黄
黏
黑
鼻
龄
龟
，
：
；
？
～
##u
##a
##n
##r
##d
##e
##k
##v
##i
##s
##p
##m
##l
##t
##2
##o
##b
##g
##6
##0
##～
##1
##8
##c
##x
##4
##5
##9
##3
##7
##h
10
##00
20
hp
30
hpv
15
##mg
50
12
40
##cm
##～1
ct
##～2
25
##na
##～3
##ml
##mm
##in
19
60
100
##er
24
##sh
##～4
80
90
200
hc
ig
##ol
##～5
dna
##ri
14
18
11
70
1～2
tsh
13
kg
##on
##～6
##an
2～3
##en
16
hb
##ic
##ar
hcg
500
##ct
35
##al
45
ph
##is
mri
b1
##000
##～10
t3
##id
##10
28
gt
##at
lt
t4
##es
21
##ro
17
ml
75
##or
##iv
##～7
##as
##os
##ch
##et
##～8
##50
##el
al
##ag
3～4
igg
hbv
##mmol
##it
5cm
1000
##0mg
##us
co
##ra
##pa
22
hiv
300
38
201
～2
95
##la
48
ca
##min
##ph
##il
##ia
cd
tct
～3
3～5
b2
49
36
10g
pc
ac
2000
##le
37
15g
198
##00mg
199
2～4
st
##iu
～1
00
##om
##mol
igm
39
##～30
hcv
65
250
5mg
hs
##rs
1～3
ii
131
85
rna
##t4
##st
##～12
150
～4
5g
42
55
4～6
##～20
min
##ab
ch
at
26
eb
##ur
##～15
23
mg
##th
pa
ad
##ul
##～0
b12
120
b6
32
##co
2cm
iga
pr
lh
400
##ig
5～10
ap
##rh
hsv
##ep
24h
##kpa
30g
##mp
33
##～40
##t3
##od
hpv1
27
##ed
##ca
～9
##sa
1cm
hla
##～50
～8
rh
##um
hbs
197
##em
##～9
na
4～5
##ing
alt
34
##pr
in
##ot
##60
##hg
3～6
##～60
le
##ng
ha
##20
3cm
##kg
##109
1g
##ea
gh
～30
5～1
##mmhg
72
##ion
31
10mg
2g
##cl
6g
ld
hd
##ev
iv
##eg
##o2
ab
##un
##son
99
hbsag
##op
tp
6～8
3000
##12
～7
pd
##ma
##ut
5mm
5000
m2
dic
##ter
46
an
1500
th
##～14
cm
～50
##nm
000
##ent
mm
##da
～20
600
t1
20g
2019
##ec
29
act
il
20～30
196
5～7
##ds
100mg
acid
ar
hpv16
ra
ht
52
dl
ige
c1
##ip
pcr
～40
hpv5
7～10
1mg
##ac
10～15
3g
nt
cp
t2
～80
800
c3
gra
pt
5～6
～10
20mg
acth
##re
##am
5～2
rpr
cl
##nd
5ml
##ug
##ids
##im
as
～5
50mg
##og
cd4
～15
co2
2mg
##ho
41
##ell
10ml
195
##00ml
4cm
9g
er
##ens
##rom
43
10～20
##ine
##ir
dr
##ta
47
05
～90
01
cs
44
ma
##22
iii
cr
500ml
1ml
##o3
##ber
mr
2～5
##ner
25mg
atp
##21
##～24
grav
h2
##di
98
hav
##pd
20～40
##hl
##uc
125
prl
67
am
graves
trh
av
56
po
##ap
66
12g
200mg
##all
sp
##man
gn
sle
ast
ic
##ill
20ml
51
hev
pcos
##mu
##～70
##hd
##bs
100g
～60
180
##ti
10mm
62
100ml
##ps
tr
3～7
0g
gl
##oc
ps
pg
58
130
##dna
4g
da
##30
##～48
25g
160
～25
##ha
hbe
68
aids
##pt
ne
140
～6
10cm
2～6
leep
##ii
##ans
3mm
sa
tg
54
br
sm
mc
50g
30mg
sch
ep
##～25
##ib
0cm
##rome
##art
ed
##ms
d3
snd
53
##hn
ds
4000
96
gr
ss
sndrome
el
2ml
##ox
2mm
##miu
##cp
##dp
1h
1～1
4mg
1mmol
##ard
2h
##ei
hco3
64
6cm
##cr
sh
02
ca2
tt4
61
gnrh
30～50
##ast
##pg
110
cn
pth
1～5
92
131i
##40
##and
78
bl
##ein
##ce
ta
##ars
##itis
##ina
93
##rt
##19
～70
de
##ide
##ation
4～8
##～100
##11
24～48
##ud
15～20
59
1～4
6～12
tn
##tp
##ang
##ers
001
pao2
pp
15～30
##ate
camp
pm
71
pl
lg
psa
##co2
～0
##15
mo
84
15mg
40mg
ldl
di
##ler
par
60g
cea
##up
3mg
57
##125
##ub
77
##one
8cm
he
xx
bm
ts
##ase
her
81
hbeag
##ob
la
69
##oma
##～19
2020
400mg
tt3
##～18
##ke
re
##va
193
##est
2022
##ess
all
pv
##ium
##13
sars
10000
88
##pp
##bm
hpv52
194
002
no
##h2
##～35
hdv
bar
##～45
##ath
a2
63
hpv18
ca125
83
500mg
##～80
##～16
76
##ne
94
e2
2500
dis
5～10mg
300mg
91
97
30min
cin
gd
##tc
b27
hor
##450
pet
1200
cmv
aml
40～60
tppa
82
##nmol
##ris
pro
##ect
2～10
##tt
paco2
86
15cm
vc
##ad
30～40
250mg
pph
##isa
1980
5～3
8mmol
lo
ns
##ive
03
es
h1
73
##eb
##uch
87
8～12
##ona
met
30～60
##ric
6mg
60mg
##ett
1990
700
8～10
##cg
2d
be
nsa
per
eeg
elisa
p450
50ml
1mm
10～14
##ka
##tic
##18
150mg
dm
hpv6
2008
6～7
100～2
48h
1983
con
hh
nm
pas
89
7～8
##～100mg
hbvdna
1000ml
74
ro
cro
##kin
ld50
sc
rh2
200g
##14
ai
d2
##～55
##ant
hbc
##16
##anc
8g
cml
##osis
ba
tnm
##bg
abo
～100
003
car
8mg
##～150
##ron
##o4
##5mg
##aba
##lo
adhd
##oph
ebv
tpo
8000
ldh
200ml
ercp
aa
40～50
##eck
col
##rab
##ue
4mm
2010
##pe
6h
8mm
en
##～20mg
2013
190
10～30
5～5
c2
gp
ia
c4
##ton
##00g
acei
6～10
79
5～8
tc
04
or
pk
～95
mar
##bc
ag
3d
6000
##bp
250ml
##～90
##～11
nk
##ian
##rop
alp
pe
##hc
350
##ik
20～50
30ml
tur
mod
rg
##ov
2～0
7cm
mds
##ass
1975
hpv58
horner
5m
##ie
2021
adh
cu
hhv
##ular
##ial
##000ml
vit
50～60
##ba
1995
mrna
1～6
tm
30cm
##ins
ards
6mm
##ae
##anos
##ld
##ich
2012
ms
nhl
##nt
##sd
##～72
900
3～0
od
##n2
##pmol
##ok
##～13
##ros
～75
##de
##ous
##rox
rs
2015
##der
##24
20cm
gm
##25
##ust
189
##ort
mm3
cov
005
##berg
1～0
##rna
##～40mg
##ata
hdl
105
##ener
##iss
0mg
mal
5～15
gi
##ll
2003
##ensis
##ood
##ist
250g
barr
m1
##uss
hg
ok
##bb
##cc
12h
cns
crohn
5～
ana
ck
dh
gbm
gaba
##oid
##ck
10～20mg
2014
4h
itp
4～7
ip
2004
6～9
vd
##act
10min
##pha
et
##gr
15000
2000ml
0～2
##ane
99m
5min
ach
se
v1
240
ami
bph
##53
##ern
##stein
##a2
0mmol
les
apo
mi
188
ib
pol
1～2mg
##roph
8～9
7～14
4d
##～50mg
##ith
2d3
##17
50～70
1～2cm
don
500g
##igm
3～1
ex
sn
ph4
##ure
##erg
45～55
a1
2009
bmi
7mm
sod
sma
##ohn
cv
75g
1994
1993
##igg
bun
do
##～27
##ann
##ick
dsm
2～8
va
##ula
2005
15mm
b19
1992
rg3
mic
1988
24～48h
lin
pid
##ier
10～12
##rit
cpk
uti
1960
adp
5mmol
mt
##ene
mao
si
1997
##pranos
bb
anca
oddi
2～2
##ki
hpv3
450
2～7
600mg
bp
hper
##～30mg
1999
##db
t3t4
2～1
3h
ko
360
cg
##ost
1984
tpoab
du
187
1998
004
pn
##arg
##ord
2011
ang
tdp
vp
##uiu
##00m
40g
##～36
1996
gdm
99mtc
75mg
1987
##a4
##dd
##lv
hcl
##oni
##ica
cag
gg
tri
##n1
coom
1986
1989
glu
aih
2a
##he
50～100mg
170
2016
1970
os
cd8
ace
ect
hcm
##～60mg
2～3cm
##itt
1985
3～8
dn
ga
ppd
##ria
##106
dha
scl
##cin
##35
nsaids
##tr
cd3
##opath
barrett
3～10
##se
##bl
06
sg
##kb
##～28
##end
2018
2017
ca19
##mann
bi
c5
got
##23
##100
12～24
##ong
##urg
2～24
9～10
mul
pag
##pl
2006
##co3
ln
##anth
icd
ben
tx
20～25
2007
##ve
15min
1982
##me
1950
c14
3ml
##cs
ala
hrt
is
##rl
15ml
1m
vv
12cm
##oll
08
trab
～85
##irus
4～1
##ease
hcvrna
gu
hk
me
1981
##ute
5kg
3kpa
4～10
hl
n1
##dh
##erm
##～21
250～5
tpha
##80
##hp
##ht
20mm
750
1000mg
7kpa
bo
nh
om
sr
##kd
##～1000
2002
##ank
72h
ras
tor
##ga
##oli
135
copd
int
##eae
##unt
crp
##h2o
disease
em
##enn
##ison
ptca
nsaid
4ml
gca
p53
##kc
ev
o2
comp
1979
bal
gps
gpt
##vd
##ipp
paget
##ru
##ker
##gen
10miu
##onic
hu
med
##hu
20～40mg
12mm
##～120
c13
auc
dcm
gbs
l0
op
to
uv
##np
##～200
25～50mg
100～150
90mmhg
##ldl
cal
##ien
145
##ani
hem
men
vldl
hmg
kl
ox
120mg
##nal
2001
##ole
##ction
tgab
100～200mg
5～20
ol
rpe
##agn
cox
1991
##anconi
1～10
rem
test
##uer
30～35
##als
##cot
07
##umol
##90
char
trust
coombs
bcr
dsa
##eld
atn
##ept
hr
im
mp
s1
50～100
##atic
2m
ho
hans
mas
mmol
sig
##n3
hps
##～160
280
##50mg
htlv
t2i
epo
0kpa
1mol
tia
##olic
##ile
##iii
ng
##oth
##～39
1800
ppi
turner
##ohnson
cor
mac
40ml
300g
##max
##kinson
7000
ker
lch
##ert
200～3
##ili
inter
##egener
trans
4a
5～12
9cm
amp
e1
pi
##hr
80mg
##cher
##iter
pco2
ptsd
methl
0～1
d1
m0
##shi
##etic
1976
1978
cp3
##ppm
gluco
6kpa
cc
n2
pu
te
##oside
##heim
##ux
##i2
1～2g
##osm
##pranosl
5～4
8h
##e2
##gs
25～0
150g
800mg
end
pap
ptc
bu
tbg
v5
##rig
120g
7～9
bab
l5
res
ros
##ori
dka
hunt
k1
rp
##m1
20min
400ml
mor
##ond
##ater
##ator
ks
##ont
##ism
##eth
l～2
##aa
##cul
##～400mg
115
～12
pah
1973
thom
lgm
l1
##io
##70
60～70
##ance
300ml
hsp
sup
##44
##～37
5～1mg
b5
rta
48～72
##phal
acet
acute
4～6h
hbsab
5109
kp
rb
so
##ital
1964
cll
vdrl
ggt
2b
ger
np
rt
##ren
##6h
1～3cm
erg
hi
pal
##ge
12s
13～27
##ical
1a
sin
von
vur
##old
14c
##orm
##osa
##～80mg
abl
##opp
nmo
bra
cer
ke
##ss
80g
##oster
prp
apc
##otrop
hdrox
1500ml
clt
##bert
pgi2
mods
cp3a4
5～9
7mmol
pan
rv
ti
##32
106
25cm
25～50
60ml
185
1～2h
1000g
2000～3
3m
gc
har
iu
##45
##shing
##ella
ntm
asp
spect
##pgn
##heimer
bur
g1
kap
nb
sub
##te
##28
##5g
##00u
coa
##ild
stev
1972
##emia
##ington
##inal
parkinson
uvb
210
uu
##～22
245
##enom
##ated
bron
esr
h1n1
ndi
308
##～100ml
icu
neu
tsi
2mmol
ce
del
li
lm
ve
ver
39～40
1977
pmr
cushing
ibs
ka
##m2
2500ml
70～80
1～2mm
cook
150ml
##ull
lhrh
inh
abs
##ack
##uchs
ibd
hom
sal
td
tmp
##ment
##ore
##ega
cd4t
10～20ml
prot
behc
##inski
behcet
cpa
lc
##ish
15～25
##rist
33kpa
1～7
bart
tin
##no
##2a
##esc
##lex
sah
##ronic
pku
mtx
dc
hal
meck
v6
##lc
##48
##～32
20000
##olog
ald
220
1969
lga
reiter
lu
tt
tre
##si
186
##ott
cmt
bbt
txa2
##kcal
meckel
5h
g6
ttt
##dm
##27
##hco3
30s
##eng
##ats
##els
add
1958
charcot
3a
5l
8～1
l2
mb
rom
su
##ver
10109
40cm
##ano
320
125mg
pnh
##ienc
09
010
hep
m3
##ax
##den
25～30
##asc
cah
pss
##180
##actor
cat
25mm
##err
##ose
##osph
cdi
avp
vitd
##rosis
covid
4～12
ak
magn
ua
virus
##mosm
##be
12mg
##enon
##cho
als
##age
1959
stevens
0ml
2l
it
targ
##ex
2～3mm
chronic
hpv11
ivu
1962
ssris
target
0mm
##ini
hcpt
##enic
acl
2～4mg
blank
5d
md
tum
##br
hco
##ora
38～39
cd5
3mu
5mu
bt
cell
mel
sv
##ies
##sgs
##42
##75
hpvdna
50cm
##icienc
##ite
1974
cp2
pve
torch
##otropia
1b
6ml
cb
dst
##vt
##ou
##oct
50～5
##～26
##mmun
##ence
##atitis
alheimer
##inger
moe
omega
addison
4b
ccl
gard
oct
ttp
un
##sk
25ml
##ilson
～18
atd
10～15mg
1956
nse
250～500ml
6～1
8kpa
mu
pri
vin
##ham
##ried
##ida
leu
lev
1966
1955
67kpa
brca
achr
2000～3000ml
2mol
4～0
mpa
##a1
##7h
104
20109
12～15
112
##onia
##roth
aptt
270
1971
cnv
g2
good
ih
mhc
##ns
##oh
##8h
127
40～70
##～1000ml
1921
##era
3～4cm
pcp
230
1967
smith
##onal
100～200ml
5u
6mmol
bcl
lang
og
sl
##4cm
109
##～2000
3500
1957
pse
3mmol
cmax
net
pbg
pbc
tu
##37
～35
654
##igo
##ema
dopa
sign
##enomenon
ttts
nr
n0
s2
vb
102
156
～94
anti
her2
1min
9mm
mpgn
pat
pra
vi
##mb
##34
##hs
##nar
##rich
igg4
##ille
5～1g
http
1953
alport
g6pd
b3
bell
hel
hib
mol
pms
sep
##ura
##ci
##43
10s
10mmol
60cm
##eri
##cop
nad
1965
##ips
gluc
##～199
6m
9mg
mon
pick
##ral
10d
hpl
##～250
##nan
##～600mg
##osi
300～5
##mps
ant
malt
5ng
7g
bd
bod
oh
xa
##av
##ceae
10u
10mu
##rii
##orn
##asia
ada
amh
dihd
ca199
5～0
bro
beck
gal
ni
pur
ri
ug
##mer
##～300mg
60min
hcc
113
32p
hdag
1961
dr3
3～2
3～12
ah
ecg
hant
oc
p2
up
uc
##iom
20～30mg
##ind
165
##ethl
～22
##thal
400g
##opl
1968
0～7
5mol
7～12
##vp
##pm
##les
108
200～400mg
111
ph1
nahco3
avl
pge2
smi
hku
tumor
5uiu
7mg
ir
rt3
##sis
##26
##och
##1a
50109
##mmer
100kg
##alis
str
5～10g
ivig
hpv51
5～25
##ugh
puva
cpap
bh
ccm
hol
lp
s180
var
##38
##～34
60～80
80ml
##olia
##ale
171
##illa
～45
～92
t1i
05～0
pseud
1～8
cas
hart
mra
mrs
tro
v2
##kes
##kda
##los
10kg
12～16
1100
##iari
～32
atl
5～10ml
asab
05mg
cgmp
burk
ccmd
1l
2min
3p
8m
dili
eg
emg
hen
hur
ob
sas
van
##lt
##2cm
##bi
##9h
##36
155
12～14
132
##enl
1600
##etin
acd
ste
chin
nacl
1963
##ogen
dr4
##ock
pll
hpv39
0mu
ica
kpa
lam
non
##ks
1930
1400
##osp
##ilep
apl
ind
h2o
bmd
intra
##right
thomson
lmph
hrs
hall
idi
l4
ot
##uin
##eber
##mit
##～38
##ola
18g
cap
##und
3000ml
pta
1954
blue
##ritis
3～9
bill
mill
vac
##sp
##int
1940
60～90
100109
##chin
cobb
～41
chiari
233
##igh
html
##ogra
havigm
avn
tga
epilep
1935
babinski
5miu
b8
cst
kern
nd
nel
spa
tra
tips
xo
##ak
##n4
##past
##oca
##79
##～23
24～72
18mm
##mine
～14
～13
6～8h
1952
dav
##～180
ree
##opathic
4～9
9mmol
hus
ich
##5cm
18～50
2～3h
16～20
35～40
##alva
##ative
##rot
alb
ghrh
hpv53
acetate
akp
goodpast
burkitt
goodpasture
2～12
ci
c6
dt
go
hre
immun
las
mer
n3
ole
sb
##ling
##hb
10～60
12～18
256
18～20
133
500～1000
500～1000ml
stra
##ulin
mcv
025
iais
##n2o
hgv
mirii
kaposi
au
ge
kall
led
sil
vals
##iod
##let
##c1
##xx
103
ctx
80mmhg
##arc
cd30
006
##ndc
saa
ssri
##cephal
##～198
nmda
opca
hndc
kor
sk
tet
##ao
##02
##99
12～36
25～45
70g
##asm
cdna
##eau
667
congen
roux
avnrt
valsalva
5p
9～12
dim
gall
hum
vip
##oi
##63
10m
20m
50s
12000
60mmhg
60～100
##rid
##rie
##ride
11000
13c
phosph
gtp
##atin
##atus
##roid
225
cd20
375
rap
20～40ml
5～5mg
##pranoside
1879
treit
650
a3
ser
##ior
15～45
40～60mg
##～17
##～200mg
##nac
##icke
##ita
pciii
2～4mm
ins
huntington
protein
ogtt
idiopathic
bv
eu
ki
mat
##rin
##lp
##nant
1912
1～2ml
13mm
##ctd
##eter
～28
at1
5～10min
inect
mmhg
gran
tao
##～150mg
dht
12～24h
##riedre
congenital
m5
nec
on
rd
ter
##ek
##mar
##29
##67
##car
101
##nam
18cm
116
phar
##orrh
3～5cm
##ev1
arb
avm
##isser
##ernicke
kline
glucopranosl
hurler
5iu
bc
gla
sia
tv
tb
veg
##200
##31
107
10～25
15ng
123
1200mg
ctm
##～300
1920
##anch
##idrosis
##ester
drta
max
##mula
##riedreich
0109
2c
4m
510
asa
cre
imp
lip
mps
ssa
tca
##dl
##95
##hidrosis
30～60mg
128
60co
14mm
ph7
##isk
##ormula
##asis
##rad
30000
child
##ems
tpn
rads
bruch
col4
tcia
cvp
nh4
romberg
ae
ait
cast
mur
ncl
rr
som
##li
##hans
10ng
10uiu
20iu
30mm
90mg
18～24
160mg
##cter
##～120mg
ebstein
prps
4～5cm
inv
cpp
asd
～65
schle
1949
aiha
hperhidrosis
##cinoma
palmit
magnoli
billroth
prpsc
bel
bpd
crh
hia
lut
m4
mil
nod
##41
10l
##～400
##enb
##ara
50000
##att
##～75
atin
##oper
～58
##astic
##inat
##essive
dhea
mrsa
siadh
dd
dvd
eh
ema
gb
mcl
pla
p24
##s2
##b2
##46
126
121
ctr
##ino
16cm
45～70
igg2
2～4g
tpe
class
dsdna
bmt
tsab
turp
muller
48～72h
hartn
chinensis
kernig
klineel
1kg
4kpa
8ml
des
dep
dgr
gold
ku
lcl
nl
rec
##ko
##gl
##39
40～80mg
24g
##eta
pcl
4～6g
chd
340
arn
##hox
##ucle
avrt
15～30min
1948
scid
sirs
mult
hartnup
1s
ax
ber
can
ec
mh
mall
ohp
##ana
##ee
##eiss
45g
##orb
##orth
igg1
cav
chop
##ige
27～4
##eder
and
th2
th1
##ree
ass
lgg
##bbb
hpv33
sgpt
##ograph
1o
6～24
aed
c10
db
der
e6
h7
nag
oa
us
##eum
##vc
##ts
##5h
30～45
151
200u
14cm
1300
2～3g
35g
##ager
00d
39c
chol
330
5～1cm
##unn
ram
51cr
##oci
##ocar
ell
gpc
anal
osas
scler
##ascular
langer
dihdrox
0～4
5～30
7d
ele
gv
rich
rnp
vep
vog
##ni
##120
##cus
20～60
1900
100cm
100iu
240mg
11～12
##～65
##eno
##enin
177
1700
acs
strab
##uck
trna
deicienc
##ophil
cd34
cp2c
50～52
strauss
klineelter
3l
7～15
aut
dnt
ibm
kle
ret
rds
uva
v3
##64
##33
30mmhg
159
15～30mg
50～100ml
12～48
##nat
##erap
2400
##～49
80～100
138
##ones
##anic
162
##ice
##ala
##ald
1000～15
2～4h
star
christ
～81
##oto
abc
cm2
5～2cm
～55
##illia
625mg
glut
sao2
1109
4～8mg
encephal
##derson
##rophic
2～1cm
100～150mg
gardner
schlemm
strabism
3b
4c
ash
cent
e7
eri
est
ll
lab
long
mopp
pel
tod
ues
vca
##n5
##sm
##lu
##68
##65
##cv
50mmhg
40kg
##eric
##～42
80～90
##～500
##enberg
pha
ph5
##ating
lts
##itar
cda
2～4cm
1～3mm
4～6mg
##iga
rham
nadh
co2cp
h2co3
psp
epstein
1938
1946
5～3cm
##ette
maran
maoi
##ippel
bartter
granul
2～9
3min
ara
cic
cir
ea
gs
iud
log
oic
ria
##ummer
##ioma
##lob
##o6
##～v
10～1
10～11
30c
80cm
16mm
##ards
##leg
420
churg
##coh
prh
the
mmc
10～15ml
c3b
icp
##illar
neph
xxx
dmd
tmab
koh
cgd
primar
mallor
0miu
2pg
6～15
6～18
8～15
8～16
dan
dev
e3
ecm
epa
eth
h5
ht3
ost
sol
sel
sho
tal
##eas
##tra
119
##ati
##osin
##chia
##ilis
2000u
231
mg2
pre
##unct
pge
gren
plummer
hbcag
tmc
simp
hpert
##uerva
glucoside
strabismus
310
7m
cit
gre
lil
pot
rc
rob
##ple
##lic
##oa
##71
20kg
50kg
601
80～160
180mg
137
##ulu
##ulm
apg
hdro
##oxic
1947
methb
conv
glucopranoside
resp
aitd
vogt
0～5
410
5s
850
9l
aip
bcg
c6h
dec
dip
eaa
gad
sul
sap
tcr
ur
ul
##ada
##mor
##～l
##han
20mmol
20mmhg
15kg
##～110
25c
igt
hbh
##ark
##ors
cabg
cha
5～14
pdg
arg
erth
015
esotropia
gpb
sclc
aldrich
tuber
palmitic
langerhans
5c
aust
bus
dia
gen
hod
mus
rel
sd
san
##ient
##pv
##2o
##55
##cml
18pg
139
##～69
##ali
##000u
750mg
##orge
229
～24
480
ca15
2000iu
prta
##umb
##ead
anll
ild
dlb
mrcp
amd
100～200
osler
127ng
##uervain
1u
1～
3～3
5kpa
bid
bud
csa
h3
icl
sec
tis
##uv
##oco
##3cm
10h
20s
40u
25～35
2～3mg
hba1
4500
##atum
##esti
##che
38～40
stein
pav
adam
120min
##ight
rheum
##eman
ham
radi
5～6cm
cd45
2～5cm
samps
##onar
hpv68
##oides
exotropia
neuro
hela
nadph
sampsan
0m
020
3a4
6～14
9～11
amin
bcs
d4
dra
ddp
miu
paba
rn
##uan
##eus
##ix
##1b
50u
124
25000
##～41
90g
117
70mg
13cm
350mg
phg
##esis
176
##order
##chs
alcoh
igg3
cooper
##iana
cdc
36h
atm
260
400～8
33cm
##～140
5～25mg
epid
ssb
tau
1932
cin2
03mg
##tical
carcinoma
gm1
5～l
##ergent
hcmv
kerat
ihh
nelson
korsa
hodg
a16
cik
gas
han
mid
mch
ort
pep
scr
vkc
xs
##uri
##ari
##o5
##81
205
25～2
25～40
##mmon
##mmh2o
##inic
##oler
142
45mg
##105
##use
##phenomenon
～33
3～5mg
ch50
##uls
ptu
##amic
##romb
ames
1934
##neum
enter
##istula
##acter
caga
sgot
200～300mg
cereb
halo
aeds
c10h
todd
2～15
4mmol
c20
ehl
gast
lrh
pbs
sam
t0
v4
##1cm
##x10
##47
hpa
40c
igd
11cm
##～600
##enol
##enia
168
##ales
phenomenon
##isia
17cm
3～4h
##omer
～48
paigg
aden
5～10cm
##ement
##prt
leis
leiom
##ever
##ental
290
arth
cd40
1951
icg
##illi
tss
lact
robert
tcd
dukes
sinensis
##iskott
2109
550
berg
cra
c21
ccr
lv
lph
lme
lenn
moll
mctd
o1
pneum
xi
##kh
##virus
##so4
##pi
10hp
30109
15m
12kpa
ctc
60m
100u
##olsk
hbig
phv
##osit
##ract
～11
##omat
150mmol
rhg
inr
##otic
c16h
maha
67ga
##aponic
neisser
deuervain
##～80ml
hpv66
##peiu
mso
##aneous
##blc
human
mahaim
6mol
7～60
bas
c8
eia
gro
hut
ket
l3
lar
mos
nmol
p3
pall
##ung
##ai
##io2
##lin
##gan
##500
##78
10～13
30～40mg
1500mg
##～33
##enc
35cm
45～50
##oral
##etal
##stem
##stru
～44
chlo
ebs
pai
～98
～97
##cl2
##ops
5000u
20～30min
c15h
10～15g
madd
##hdro
hbeab
##ibro
coomb
##ipple
tour
kallmann
0～3
1d
3kg
4l
7h
9000
9～15
b4
but
b35
div
duch
egr
echo
gil
hell
hand
irs
mes
mart
npg
ped
pers
ru
r1
rms
sid
tl
tbm
val
##mr
##1h
##cor
##xa
##72
10～30mg
##～200g
##ink
136
16g
hba
##are
35～50
##000g
##aton
100000
com
380
～23
##ming
～16
##omal
iib
150～200
prca
##ign
art
##aceae
##elli
10～20g
016
spo2
glc
1hm2
02～0
diss
##onan
30～60g
carb
caroli
1904
##ropath
##dex
hgprt
##ackson
brca1
epileps
##ococc
lennox
8mol
bn
bis
bla
eog
kt
lcm
nos
po2
pop
post
sud
tam
vas
xing
##no3
##dar
##lan
##cu
##52
##5nm
##98
30m
cta
ctl
100mmhg
118
##enne
16mg
28～30
211
17mm
##ason
38c
～39
3～5min
pcblc
cho
##ode
anderson
cls
##ensit
##ption
shi
##ander
##ersen
15～30g
30～60min
period
p450c
hbcab
250～500mg
prpc
becker
##arcoma
pharma
associ
analistula
##enoic
erioca
hba1c
##estinal
neisseria
3s
4109
cur
dp
ibc
kr
kra
lus
mk
mit
one
pic
pct
piu
spr
ucg
##nia
##res
##d6
##2b
##bk
##x109
10～40
20u
1910
70cm
2～3d
164
500u
##ides
174
##50g
3～5mm
1～3mg
##ural
～96
3～6g
##cler
10～15min
dr2
drager
avr
icga
6～12h
1939
1937
nmdar
##o4s
rsv
micro
##hpv
intestinal
leuk
strept
bh4
col4a
murph
hiaa
hodgkin
0mol
3～14
5a
6～0
8～14
bg
c7
dane
derm
hv
ida
ls
mib
osa
peg
panc
rar
rub
russ
s4
seg
##aco
##no2
##eal
##per
##md
##lla
##76
15mmol
15～20mg
##～250mg
25m
100m
114
1～2l
##ono
hba2
35mg
178
175
mld
cop
cock
cam
acc
2000kcal
##edia
##emsa
thromb
c17h
##iple
05g
01～0
125g
140mmhg
～62
mcn
##artic
1945
pphn
gott
hrct
200～300
gerd
##lcer
inection
tvs
oste
##ulmonar
budd
c12
cut
eus
iia
kub
lap
nit
sit
t8
ubm
vol
##una
##ual
##rus
##du
##ls
##x1
206
153
15～0
1200ml
##mma
##inia
1918
90cm
140mg
1～2min
##enter
phe
##idae
gtcs
1712
##asma
##cha
1000u
22mm
##lav
～31
36g
pca
～17
atg
pru
##press
tpp
##uteld
20～30ml
～10mg
ert
icsi
samp
smn
1944
cin1
loog
root
polg
##ergus
##orden
nh3
creuteld
0～6
4～20
512
8～2
ais
arab
bor
cis
dup
dba
ias
idd
l～3
mn
nic
nas
ran
red
rea
tst
vent
xp
##iol
##iri
##ield
##2mol
##oac
##4h
129
##～3000
##erv
##～44
14co2
134
##ons
##icus
35～45
##orin
3～4mm
～38
2～4ml
##stit
##ult
apud
##emet
abvd
mms
600～8
raeb
c18h
c19h
schann
1936
1931
pvs
##131
horm
1906
giemsa
##ithel
sodium
medic
##oleic
keshi
sv40
dimethl
multiple
ramsa
##illiams
austin
tourette
gottron
1～12
2～20
2kg
4e
4pmol
5ug
660
7～1
ble
c8h
den
gss
kn
king
lems
man
mir
nor
sing
sbp
tel
vt
##uon
##nu
##o1
##b1
##73
152
12～19
25ng
90min
##～5000
##～500ml
##icron
##arren
##～75mg
##asl
##osk
##506
alpha
22g
cdk
##leman
～110
～42
##able
##thes
adm
120mmol
ghd
46x
therap
600ml
##ace
bl2
tnt
pvb
crouon
##ophta
coli
1908
##plasia
npc
tinel
dstonia
nrem
antig
171mol
magnoliophta
gvhd
h5n1
##osinophil
lphs
duchenne
3c
7～11
ao
dvt
eps
gut
his
id
nst
pit
pem
s3
sim
##iic
##mid
##land
##tal
##cal
##hipple
##00iu
30～70
158
12ml
40～45
##inh
19p
60～80mg
##shall
14d
14～21
##enstein
45cm
45～60
##lamm
cae
cd10
che
pres
～82
##une
thun
800ml
5～6mm
018
125～0
66kpa
##hael
mcd
edta
herp
pv1
disorder
loe
hhc
roth
colles
aga
##hcs
##ortion
5～15mg
dheas
cvid
txb2
omicron
complex
keratitis
trouss
obstru
steph
respir
##opsida
maddox
1mu
b7
call
dda
desc
ei
g3
hist
iart
kent
mom
mco
pin
pub
sna
sph
sca
sem
sds
ten
tar
tma
um
uae
##uth
##rag
##rington
##dg
##don
##ena
##k506
##px
##t1
##bod
##cet
10mmhg
30kg
30～90
157
12m
##～31
##inc
##inson
19mm
##shop
##rix
148
##anolic
##enthal
169
##arin
ltr
##rog
179
##osta
##usp
cad
##ilial
cd22
235
##uma
##～95
inc
leber
abpa
～76
pde
cm3
##dau
ntd
cpv
432
2～5g
h2o2
125i
psk
psc
130mmol
deb
ppng
pmn
plat
herb
1943
c23
marshall
rsr
1897
cnsl
koch
angi
c5a
##genic
hemorrh
mpo
transient
1858
inhib
##oseph
prader
holter
davm
silver
tetra
encephalopath
uesm
rhamno
apgar
adams
russell
ddavp
530
6～16
6～11
9nmol
bat
bos
bins
cri
cle
c02
eng
eosinophil
hess
heter
lan
mers
nv
nus
pml
pip
sstem
top
##dom
##eh
##iat
##ional
##mml
##tom
##x2
10～19
20ng
302
30～50mg
154
15～40
50m
50～150mg
##～1cm
##～130
60～120
100mm
24～36
igbp
##rier
##aret
##rost
172
75mmol
##orum
##chman
##ets
##elt
##elin
22nm
～29
～2mg
##iac
##omet
##strom
prol
##ignant
##t3t4
～84
inn
abortion
295
arm
ht2
523
##ames
5～2mg
aso
##ense
##ension
crest
125ml
pg2
pg2a
160g
brug
30～50ml
taa
##anger
hex
pvr
40～60ml
prop
prost
esd
##uchi
tmd
ckd
seiu
vaca
##ulam
hpv31
cage
gaa
srm
emb
ngu
homan
ttv
dstroph
oleic
danlos
ecmo
lilium
##cmlib
##erguson
iddm
trousseau
2kpa
6ulu
a5
bir
bpp
bass
c22
cord
dpg
gener
higg
ips
npt
nik
ori
pulmonar
sen
sar
sha
##rol
##ran
##rine
##vir
##ila
##our
##xin
##5mm
10～50
209
40mmhg
##～2000ml
##naud
##mmel
1914
##erman
##shim
##～46
141
##onium
##ctive
phpt
phenl
2800
##ele
copp
2200
cao2
cd2
36～37
##ulos
##coast
##odend
##emic
pds
c1inh
5～2g
##taut
##berden
amb
ic50
##ocard
schi
gnrha
##inase
heberden
##139
methox
##ophag
aav
iaa
1896
##gressive
linoleic
##ritus
pns
bishop
##alsis
rb1
sinus
brain
pancoast
##ullar
homann
##anoic
mdma
antibod
albright
h7n
gastaut
ehlers
arabino
hormone
binsanger
brugada
0～10
2n
3～15
6～2
8mu
a9
bil
dig
dopp
ers
gsh
gmp
inant
kell
let
lim
lats
mag
msa
mik
merr
nat
oph
otc
p0
reg
tom
ttr
u1
urs
ulcer
vma
vir
vsd
##uk
##ule
##kov
##med
##bu
##bing
15d
15109
40m
1923
60kg
146
##～64
##arth
##isc
17～18
##osl
##ete
caes
##ilora
cd19
3～5g
stsh
～19
chedia
atax
pac
pain
##ulic
275
～99
##emann
##otor
hashim
ivp
##unnan
ann
1500g
20～30g
dlco
hpv56
ptl
clark
##ucc
spasm
##illis
hevigm
dex
parks
sarsr
1941
gp120
04mg
peep
vita
malignant
1882
polp
michael
mtdna
boen
##ruct
masson
ptcd
thomas
like
##escens
500～1000mg
korsako
mchc
##ulsive
mollaret
doppler
3mol
4mol
6d
720
7～13
8～20
8～11
ahr
bac
dal
dat
eing
gri
higa
lon
lve
mem
mng
mut
nc
niss
ov
oi
o139
pom
popp
sco
tat
vul
##uria
##ness
##rata
##rank
##kine
##oe
##opa
##out
##100g
##cit
##hcg
15～18
122
25u
1922
100～120
100～300mg
149
14～16
11～15
167
16～24
hbco
##arp
##arl
450mg
phc
##ister
21～35
75～1
##chn
##usen
300～4
370
sta
1～3g
iiia
##ston
4～6cm
268
234
40000
rhioma
index
##earic
5～11
##clc
pdt
##utic
throx
cp21
acth1
dr5
mach
2～5mm
dad
##ptp
epithel
##inata
lgv
nsclc
##ancer
5～15cm
##erger
vari
10～12cm
adpkd
pnp
##106iu
lnch
20～25g
100～150ml
imh
harrington
lcdd
##isher
##escent
##octe
300～500
300～500ml
miller
oleanolic
ledig
maxim
##enburg
ester
##alied
leiomoma
associated
pruritus
thunb
seiure
chediak
higashi
2r
2uiu
3～20
610
6～20
7～2
7ml
8c
card
gel
gag
gsd
hld
high
k2
kit
lps
mx
m7
mptp
pim
rep
rett
rpgn
so2
sand
tot
vda
vad
vascular
##ail
##n0
##ranch
##ked
##las
##tsh
##o7
##oro
##ger
##gia
##110
##x3
##400
20～24
12ug
40mmol
24～28
##ship
200m
200～250
##olani
181
##icc
##idine
##104
##ato
##ivit
common
300～400
490
365
～150
65kpa
chv
pari
##ulon
prep
ap2
hsv2
333
##20g
hdigm
～78
anp
1500～2000
ntis
##amilial
grave
avb
##tional
schul
2h2o
she
deet
4～8h
15～20min
plp
parap
bmc
lak
##essler
cin3
2～10um
##ado
8～12h
carp
or8
marker
sear
1887
##ularis
trich
ev71
medullar
##ateral
25～50g
btk
ccl4
ocd
upo
dtpa
lasik
euph
##estern
castleman
christian
simple
229e
rheumat
gilbert
artem
pancre
creuteldt
nikolsk
0kg
1p
1～9
1miu
2ap
4～2
4～4
9～6
900mg
bdd
burg
bsp
civ
cck
dand
gene
ix
i131
kru
liu
lac
lbbb
ors
ple
retic
tol
xla
xlp
##no4
##rnp
##kel
##vascular
##ira
##mic
##l0
##oo
##bt
##beck
##97
10～16
20～22
30d
50mm
12～20
25kg
##inersen
1911
##olin
##～500mg
182
18ng
707
70～90
##anum
16s
##ider
##idum
2122
##ivitis
##itor
##usion
acb
ebt
236
##ther
325
400u
5～10mm
apple
##mptom
～86
inlamm
31g
hdigg
##egner
##egue
##enta
##enton
arvd
##ogart
##ello
540
shbg
4～8g
##～10000
##angi
hered
hernia
allo
pvns
progressive
03～0
gp41
marg
##berger
apoe
1889
linn
guilla
l0g
opll
tooth
aspartic
nbt
tdt
##brand
oc43
##illaria
sasp
epileptic
magnoliopsida
elect
glutamic
##morl
ortolani
eriocaulon
c12h
rhamnopranosl
nusinersen
throxine
##ailure
2s
6miu
ari
bone
dg
das
dea
hard
inar
l12
line
mmp
mont
nar
oab
occ
rbp
tid
vag
vhl
vii
##ui
##ress
##dn
##del
##e3
##po4
##mi
##mon
##b3
##cis
##cut
##cell
##hen
207
20～35
50～80
##～58
147
183
##icular
ph6
##iden
##atia
##cht
##chlo
##elo
##agener
##raction
227
～21
～200
##ilit
##iaceae
37～38
stim
007
hsg
##rst
##stic
##sted
##～1200mg
##～1500
prev
##entin
t11
c11h
##ensen
430
ams
130mmhg
sachs
mcc
schart
dsplasia
##oxin
02mg
tax
dean
15～20g
15～20cm
paralsis
776
barre
cinnam
lochia
2d6
##ophll
pkd
age
turcot
hdlc
gabaa
ipth
ipcv
lesion
snph
##ostek
##anthus
evans
c13h
50～100g
##inalis
##ologic
slk
nrnp
nih
purkine
ndag
sclerosis
starr
tubercul
obstruction
descemet
hashimoto
acth1～24
artemisia
kruk
hereditar
guillain
030
1～15
950
auer
beth
c7h
cancer
dub
dgs
ee
ena
gba
hn
hugh
hippel
ile
kal
kenn
l6
ler
lum
luc
mda
nev
ohcs
px
rat
rast
rbc
serr
tpa
tris
toxic
xl
##n6
##kp
##vi
##m0
##mal
##2000
##bur
##6cm
##140
##82
##85
##96
##hite
40mm
40～80
40～55
##～29
##initis
100ng
24mmol
90kg
90～100
13～15
##anol
163
16h
ph3
b17
##idin
##10mg
##10cm
##aten
##esia
2100
##rona
##oss
##ethox
alk
##agenin
##itone
1000109
1000～2000
hivan
300～600mg
cd7
acv
008
429
prpp
2700
～88
##emat
5～1ml
31～50
##opia
46xx
##ential
600g
actin
raas
grait
01mg
marie
iiib
2～5mg
h2so4
##hdrox
180g
psch
psvt
schmorl
##dpm
30～50g
1～5mg
heal
hering
##h26
##h24
2500g
peter
##loer
ldh1
coll
04s
vitb
1883
lindau
gauch
gamma
sglt
srus
klippel
oxide
hoship
##n3o3
corn
##erteb
vero
tdr
15～25mg
cp2d6
garden
##illebrand
##ination
nl63
cp2c19
##lobulin
ca153
h3n2
alcoholic
pneumonia
hellp
martin
##odeicienc
p450c17
cdk13
herpes
stephens
higginson
poppers
inlammator
1umol
3109
4～11
5～40
560
6～3
bom
bmp
beta
c0
cep
cand
dige
ecl
gml
gan
hein
imm
ipa
kb
kup
lig
lup
lpl
mcm
nn
por
poster
pugh
rib
sic
sarcoma
tens
uip
vcr
viii
##urs
##uric
##ku
##sen
##pk
##mn
##mv
##tg
##200mg
##bo
##6g
##can
##com
##4g
##her
##hal
10～40mg
20d
204
hpv45
hpv81
15s
25mmol
25～28
##nath
##nase
1913
1924
1925
1926
60mmol
##erol
##olium
##olenic
##rian
144
143
1411
2～3ml
1618
##alk
##alc
##～105
##chi
##etti
##50ml
##agic
##ites
coulam
228
300mmh2o
##iao
